[[{},{},{},{},{},{},{},{},{},{},{},{}],[{"weights":[0.19062821548110592,0.3294825211816739,-0.24736289128675015,-0.13471429622338946,0.0665118433966112,0.13543307719489955,0.21430471385389482,0.14277269595015585,0.19318126052255757,-0.23405063685181668,0.10354745344324036,0.3532537780088747],"bias":0.3617952492665776},{"weights":[-0.12472870078589313,-0.09875464739370603,0.16173695805611993,0.08253508963047808,-0.02930504396628001,-0.1228270635265536,-0.12391200012896167,0.13357138344386615,-0.001016961305599026,-0.09037509498369266,0.18654598757205693,-0.1708269655033573],"bias":-0.23381850698911247},{"weights":[0.09766204999462368,-0.048784819523861926,0.13769976472264595,-0.10617273715470436,0.12556053656323932,-0.5247168479130252,-0.013082696453773524,0.46643363029184637,0.0009531387501214047,0.15341046528945634,-0.14402430012808334,0.08621131679289872],"bias":0.2175128738683133},{"weights":[-0.32389314484628545,-0.27055233001932083,-0.20011300925504824,-0.04481851960020579,0.03958370262531082,-0.15971676354487363,0.13760251163742435,0.26426568674107465,-0.1253069851322877,-0.2861150808908279,-0.22207618449950153,-0.1857281285943558],"bias":0.22724423031030286},{"weights":[-0.14657574695739306,0.11114215199277949,-0.21238083989483497,-0.016750705269496246,-0.09321135630935701,0.31110294605832256,0.40189256688440067,0.008288783159172688,-0.04384926830706184,0.024956254490758584,-0.0032017594406513732,-0.06940965326029394],"bias":0.0013536678573174078},{"weights":[0.0021002446321359714,0.0018725325980971652,-0.10455200833134753,-0.10400008896826021,-0.08878008604423393,-0.04957746893644236,-0.05218735595684856,0.018023816878975633,-0.07961633943959423,0.002741955759932993,0.14844446411534806,-0.05718196987418162],"bias":0.21821902938462612}],[{"weights":[-0.23287603759829406,0.045820118436214446,-0.02500348196847782,-0.09623567285861753,-0.05600227256094231,-0.25968913479164957],"bias":-0.31294416520610735},{"weights":[0.16797766463348385,-0.34912042022210377,0.2796524469719841,-0.03387066393295515,-0.34792487489947865,-0.12233250585475655],"bias":0.07218818063344327},{"weights":[0.0986185739955554,-0.11304936381564107,0.5057816371129917,-0.3026299643573711,-0.17457455572365257,-0.3211976197143614],"bias":-0.027457429166306217},{"weights":[0.047606602867561604,-0.12574476218200675,-0.09810090194761775,-0.23331108938208067,0.14201951353562026,-0.0715841036400606],"bias":-0.010718244849005642},{"weights":[0.3304403200210885,0.48275469135188287,-0.3143346283395009,0.31499865457996507,0.0068005868822074165,0.32920767336393897],"bias":-0.2358737274676595},{"weights":[-0.00144272292464517,-0.2950811008481047,-0.32473312925215836,-0.1719436001749659,0.3221997500092032,0.10980918631879419],"bias":0.1576547623672753}],[{"weights":[0.060437506853458806,0.038705943198954686,0.1685829262001815,0.1652445368542157,0.11234091749441674,-0.21389083355222038],"bias":0.2683183441007467},{"weights":[0.19567595416845104,-0.12487693550760542,0.07554864035017159,0.45182099220928484,-0.01077508100617934,0.05857572903443048],"bias":-0.09377587517598832},{"weights":[0.258970152358636,-0.10193880887080378,0.08017203931722716,-0.08659739528811236,0.18274702910409055,-0.3181684394715435],"bias":-0.09467323696234511},{"weights":[0.0922496422052439,0.213515856558868,0.04128361659819224,0.0422739870933597,-0.034634003948452785,0.46875092460775314],"bias":-0.19474671418487527},{"weights":[-0.11041769334753669,-0.24637452093128534,0.2784568048440661,-0.31797202925165324,-0.24529266711207634,-0.03461998932287951],"bias":-0.6843410554547016},{"weights":[-0.06113170450738403,0.04161958738172526,-0.25808626068281565,-0.17835021852527969,0.22108623932325414,-0.16653639745660503],"bias":-0.15370930181299552}],[{"weights":[-0.7413977413729792,-0.7118378432015873,-0.865112311450907,-0.16231489780038638,-0.3393889053966612,-0.8302707573487399],"bias":-0.9302887406958594},{"weights":[-0.1096434964772006,-0.11693518213436352,-0.3380837103956451,-0.06263836603229618,-0.03320722746506799,0.0185793550724863],"bias":-0.23702508083124946},{"weights":[0.4720100024667475,0.38197707933002867,0.40792619174787415,0.5876217579631606,0.21600501148638412,0.22169837662649244],"bias":0.15946553268425726},{"weights":[-0.6725338816970767,-0.8175000855898094,-0.2019909805101858,-0.21857080397238457,-0.7998384530012349,-0.008460200271302606],"bias":-0.1606712860046601},{"weights":[0.300673678939441,0.5493274204569185,0.29987907765107324,0.14858853598406457,0.1326692704730487,0.10679525588425995],"bias":-1.1047085761564355},{"weights":[0.2547571070978194,-0.5487481167793589,0.06980535290410811,0.4801879591475175,0.04420821720857332,-0.04916654782956093],"bias":1.698784476044904}]]