[[{},{},{},{},{},{},{},{},{},{},{},{}],[{"weights":[1.9987914317916111,2.767916084881442,-2.661392494075113,0.5292454720159303,-0.8119752154192241,0.8935444613797241,1.7684678508197713,0.4914654636668523,-0.7937899029302615,-0.5026669090242786,2.705066837615715,2.552427022833414],"bias":-3.7821844783114953},{"weights":[-1.9582693462842544,2.240592516782846,-0.33756770186036444,-2.3091803670226554,-1.4020225538945281,-0.17204757038467733,2.006879816010649,0.938606086318218,1.9150728922619198,-0.6265346972022576,1.3135548288688472,2.813556153952331],"bias":0.9138625489030012},{"weights":[0.5450082228197477,-0.5134826520788152,-2.2305450807030494,-0.7094010547468175,-2.9130978313838263,1.9232082445719048,-1.5225313083002046,-2.655655554334692,-2.289010690628108,2.266427775806414,0.5917660220940832,-2.41115276313565],"bias":4.282428620591411},{"weights":[1.5453018786283614,1.1868596970708012,-2.555535558983048,-1.7662043894900874,-2.9130593585864997,0.6320065613284971,0.4297937630116291,-0.16890181943262128,2.2184377595443205,-1.0671210000760931,-1.9080363868024648,-2.4559805947684854],"bias":-0.06794659324348906},{"weights":[-1.032335424929508,1.203164337998052,2.5851345675624477,-0.2248472056081754,-1.9447363615351998,2.6459691276118322,0.48578444413033806,2.892585539342039,-2.072743647557402,0.582670195086,-1.8651000287531097,0.975234533938504],"bias":1.5986262034469432},{"weights":[0.411734318208671,-2.311684572046054,-2.157749414925947,0.3176211683917205,-1.1837422678455798,-2.8195797449625406,-2.7241416549324633,-1.8767045612767674,0.2870603037651316,-0.7925543593002713,-2.8949313918780653,-2.521571402182208],"bias":1.4993010622596206}],[{"weights":[-2.306519413240336,-2.069154473786778,-1.5274188155483857,0.8066007130704111,2.213162509843337,1.0417037261597493],"bias":2.405825949811666},{"weights":[-0.004257413175674518,-0.5935409388520583,0.2464402198121216,-2.3295733796433833,2.7080563752896536,2.992911696286331],"bias":0.07599243725264593},{"weights":[0.42241907493944986,2.2055564379733754,-2.278207974917067,1.5688530099366194,-0.6379444834159056,2.3426629809421913],"bias":-4.836395868219093},{"weights":[-0.5318931863889969,0.563700612136083,1.8213265045806626,0.935174466318589,-1.1822559618542343,2.6679337112162758],"bias":-3.670967150001856},{"weights":[0.9429350292998233,2.314944321758774,1.929278512249418,-1.4240826730151575,-2.4977821904231226,0.5306102193028668],"bias":1.083392652286884},{"weights":[-0.1778237470016335,-1.1599256470284978,-1.5069138230381287,-2.7658681746076033,-2.887555137445129,0.7225690143207704],"bias":1.8931845355616028}],[{"weights":[-1.103753193140933,-2.777364387370422,-2.8930720362231606,-1.181136519630249,-1.4443235669392596,0.11545503949921443],"bias":4.562307324445175},{"weights":[-0.9334788377088077,-1.6998751258610334,-1.2146083584113951,2.745442925197083,-2.5805492994038985,2.2039758445082986],"bias":-4.361574216731188},{"weights":[-2.7308449273958972,2.2254925339115834,1.2032241144322207,2.47168561836331,-1.5908375445201395,1.1140961878999178],"bias":-1.0463470816933782},{"weights":[0.8343949096616035,2.091095952403565,-2.45462603185762,-0.9649224342498712,0.23616027647046023,1.3080464415929738],"bias":3.08317583970949},{"weights":[0.6099808041664301,0.7768771758732598,1.460673879223636,1.8177605709662732,1.836267666156628,-1.0799568656996221],"bias":-2.1866808333415966},{"weights":[0.5752247217538624,-0.7103992478244812,0.617148534260799,1.4064830766210488,-0.4744773606740553,1.0967316753437153],"bias":-4.486983942378785}],[{"weights":[0.16315159166568183,2.874833563898644,2.5717832991721643,-1.3080209557819176,1.2427679348968255,2.424971628633254],"bias":-4.1589280144596295},{"weights":[-2.165882244146035,0.15715682458203784,-1.27984378800527,2.286202636423388,-1.5584962264311835,-2.6237480253717314],"bias":-3.6310585036532617},{"weights":[0.1380593997640398,-1.915320193155765,2.246404278286903,-0.1416186552941774,-1.831022543554067,2.51487406705727],"bias":-1.405104607351968},{"weights":[0.6890378412925537,-2.977479673276804,2.9765717998938115,-0.1393778302541948,-1.6612470618673947,2.045071550666605],"bias":0.2328016187402513},{"weights":[-2.0189401053033484,1.8330555324569158,1.295158112094514,-1.4638072354758325,-0.45779896553126953,-1.8404021836426805],"bias":-1.5848379125081213},{"weights":[-2.8725594453249506,-2.416602286814002,2.9334842753862302,1.548135721838623,2.106811178348618,0.9074790181593011],"bias":0.6246256923903069}]]