[[{},{},{},{},{},{},{},{},{},{},{},{}],[{"bias":-0.8710758592884291,"weights":[0.10324076895564946,0.4888491081292099,0.02448200442910447,-0.07710725037524993,0.21636273261396521,-0.26681765688157605,0.0779527027514858,0.2150489980351903,-0.011562774505432152,0.2371276451436679,-0.2007913892336869,-0.05652242219580221]},{"bias":-0.6786873029511598,"weights":[0.12570056810121127,0.41571228710310054,-0.017658843863375816,-0.15875914957505116,0.18706238816900764,-0.032986460866256645,-0.03435803885531354,-0.012818560752306632,-0.012307845566214663,0.04437507203916788,-0.23828621358658042,0.09407071372296834]},{"bias":-0.6338689530038344,"weights":[0.052420145249189004,-0.21197405977283548,0.32338744027159466,-0.13371184150470342,0.06292970145018527,0.09002393420550958,-0.21935192452861102,-0.08610424457379454,0.012073454664728617,-0.018013298989825097,0.016882590845646073,0.617482633832393]},{"bias":-0.6463986322216014,"weights":[-0.05252909664691604,-0.19660634974853897,-0.16720647177685333,0.5096602763167067,0.0017838441316808985,-0.16435431238284426,-0.05902310934996882,0.08348239229887588,-0.0846075107617624,-0.2259514295236958,-0.14759753644203616,-0.13284174154720466]},{"bias":-0.5122208625431326,"weights":[0.20095007657325084,-0.936019821267049,0.15204271665658503,-0.1999465659476081,0.06478884967353593,0.08687683034054096,0.016271986903509512,-0.23756520980015988,-0.06642597590566797,0.03242850256332345,-0.10059381578404628,0.12077257681677697]},{"bias":3.0998617277041274,"weights":[0.11849341357125294,-0.0020071625568095527,-0.04004314733499333,-0.24163849922326502,0.0363372805606033,0.24816513221743136,-0.1495245994432379,0.11445200165038151,-0.23194843593560344,0.06837627978179135,-0.05549435409397199,0.030262208031983793]}]]