[[{},{},{},{},{},{},{},{},{},{},{},{}],[{"weights":[1.4661342719122326,-1.5453948750286077,1.55362396437158,-2.907062685539369,1.1049100982935327,0.6840405015894371,2.4323182486152906,1.6260634457749203,-2.613952650997871,-2.3598218618928426,-2.8779591858487334,0.6575557449600562],"bias":0.6755660974113837},{"weights":[2.5093744932514683,-0.44311241996573525,-0.720606626746283,-0.6611691228295316,-2.2537685802134804,2.936671653154308,-2.519324469437795,-1.6102519586922692,-2.531349042269352,-2.8679087904033347,0.7687648810532881,-1.0857428930612112],"bias":-4.003003960710137},{"weights":[2.3413314802390115,-0.05612016535187703,1.2668485088504298,-0.12054116171246676,-0.4480964918159538,0.981094217276123,-0.3843603390124808,1.878223834399268,2.8058841396500576,2.220216402588097,2.9277998269861456,-0.2926170142796707],"bias":-2.368169698006848},{"weights":[2.9046942705987826,0.4981970926421875,1.9222359025560571,-0.5807140009704463,-0.7972395796697613,-0.5677791038269149,-2.733950814672541,0.00036551349268432176,-0.010049431897388938,-2.3050222690461983,1.214169153805905,-1.7782575719737097],"bias":-1.4976441203198867},{"weights":[-1.4611737940759535,-0.4840401446785423,0.19468378636083195,0.3197770302216689,0.3053870846306248,-0.041100970523209934,1.919874892166777,2.0759431655198153,-2.8781682140906235,0.9636224271298399,-2.4555678052337147,0.050707453637691025],"bias":-1.3898151499478684},{"weights":[2.850050428203125,2.721194842568387,0.9265139831255391,0.36852190844318944,1.7018076138071683,-2.1258097092370507,-1.8830670094755062,-1.7619112883128296,-1.1599788320375546,2.4561724765737445,-1.0137532452925446,-0.5710587323922738],"bias":4.84454077493721}]]