[[{},{},{},{},{},{},{},{},{},{},{},{}],[{"bias":-0.6563419362604463,"weights":[1.3760534046098591,0.6480723622655518,2.272731230668084,0.47364337985079974,2.2434051061083045,-1.2511896510032499,2.6880202298671776,-2.1730994233468586,0.2830795660388654,-1.8456210632506809,-1.8918306707631447,-2.791952529816591]},{"bias":-3.619084735904318,"weights":[0.5965035356210682,2.58475326021341,2.397627127155501,1.8669083435937148,-2.995205447503685,-1.1143324648486832,1.5006144300107866,2.4474579101322975,0.9424855304270805,2.2635251710586113,2.4700825425053328,1.2799155187294549]},{"bias":-1.5246217113065974,"weights":[0.7989376383697429,0.8079775644149358,-2.3602916032371644,-1.9211792395876643,-1.3835039796273072,1.6440427060406897,-1.0598911169708582,-0.8517104937897262,1.7911241527185622,-2.462228620956494,2.9514511948978654,2.617241246754322]},{"bias":2.8113099680737985,"weights":[2.7965071001670463,0.4461927346221879,-2.537607458216516,1.8783428446906951,-2.506672652542102,-1.2626953676546429,1.653996796037534,-1.0012053408869424,-1.341883580827296,-0.804592551890086,-0.22417534826607044,0.6394103126364197]},{"bias":0.8752055061680188,"weights":[-1.7742710166677136,-2.5000402231643593,-1.8561558568921783,-0.9614521877998343,2.7207287930106805,0.9047277572720565,-1.7681796059401982,-1.5507715495448133,-0.6644856013755747,2.110435092561204,2.8524348857153514,-2.6111823736955007]},{"bias":4.535674863052833,"weights":[2.8743843620658636,-1.4802089261053437,-0.5068568038288692,2.237657275788812,1.2232203018069372,-2.8141265141158476,1.7942490395564406,-0.6997964633508,0.5732527243864829,0.17094104739543603,1.5719354884307473,-0.6232961865223352]}]]