[[{},{},{},{},{},{},{},{},{},{},{},{}],[{"bias":-2.993600433205399,"weights":[2.8864159801740756,2.352721466718724,0.9255465983238915,-1.1941454984089541,1.6907164786189792,-0.46280747281329493,2.8490442781756915,1.8459032751133115,-0.9691323529109672,-2.076562300385361,-0.6192309010321271,-2.6580386997190653]},{"bias":3.433359615801697,"weights":[-0.2129796088004685,2.8450133089785012,-2.4129316810115435,-0.9654617978493079,2.384785275468065,-0.7490935892142527,1.388872963157893,-0.16426061499719946,-0.7067052374731779,2.5304202822487527,0.7138518397574112,0.26771426415460464]},{"bias":-2.177183400537095,"weights":[-2.9464657546716273,-0.6848217361094275,-0.761984094109883,-0.8141736370072734,2.721900854493648,-2.639481240452275,-0.6673051206960086,-0.9873269597392351,-2.449437160920769,1.6048426367240873,-1.5568025962604404,-1.0336470390305261]},{"bias":-2.3470538732580404,"weights":[-2.7272035004790287,-0.07971997650061002,-0.36127055641394357,2.874612369876127,-1.3161183422513267,-2.8496321202281196,0.8104070352612789,0.3917494283369023,0.8372691289470833,-0.7976391299851362,0.7374000904240638,-2.6405059610968658]}],[{"bias":0.17985645897040037,"weights":[-2.1118487101531453,2.8628247497703416,-1.6479879730524778,-1.514056161430354]},{"bias":-2.556779862046894,"weights":[-2.302001371032803,2.1686440711128734,-2.1779244961840245,-2.713958293584384]},{"bias":4.144508419045792,"weights":[-2.201500920781444,1.5515885522647004,0.32601202995902945,2.3477242299378425]},{"bias":2.444403171333164,"weights":[-1.18053197035563,0.6396508241936081,0.5286617586905624,1.140869645055659]},{"bias":2.1693125944482547,"weights":[2.8157530681054244,0.9863943768483985,-1.524211987736959,1.7424230586278666]},{"bias":-0.5665492310940916,"weights":[2.372432676176249,-2.0938245052879525,-0.1219871206668488,-0.8961724841661134]}]]