[[{},{},{},{},{},{},{},{},{},{},{},{}],[{"bias":-0.8266044478786971,"weights":[0.13950525853414641,-0.1367626106223277,0.016601378760277494,0.5040027372423199,-0.15564237039133266,0.052159644671795735,0.36615325079826744,-0.0468769823516489,0.07278751359497396,-0.2289250643152992,-0.4328461275049147,0.27522270083247524]},{"bias":-0.8104185866021626,"weights":[0.3883161484935256,-0.20882202421242468,-0.6326907173122533,0.010941888176526887,-0.2127921062043806,0.09713724855041167,0.18174160266602496,0.18921541990171878,-0.0721622783798166,0.3356009218214258,0.1287160252790505,0.07083038740491084]},{"bias":-0.17356701467519475,"weights":[-0.2640060337836923,0.15504423299711204,0.1332988110243068,-0.1511032902194552,-0.2023612911823262,-0.0898820956883321,-0.07640900537359627,0.17824633695911896,0.11952483740233984,0.16060932653271182,-0.02093260003634066,0.2527321042489654]},{"bias":-0.32807170027576593,"weights":[0.16372940897423827,0.22148737117231287,-0.19998816147292034,0.44955487276563216,-0.03694775301294273,0.05872045000129136,0.006600614090387938,0.2582759610249072,-0.19175377648183475,0.12463944571396532,-0.16350097970173463,-0.0775774849904526]},{"bias":-0.12285589865870639,"weights":[-0.2861111205229472,0.04528207735066146,0.44310230372144155,-0.1866565336553219,0.39702485133871973,-0.4617649676111983,0.3804451079596831,-0.2654389702908265,0.3038545442459893,0.06708737247207917,-0.08615198892576337,-0.2328052586076836]},{"bias":1.5019717146248621,"weights":[-0.09832471156996739,0.19653423714114343,0.0661772824749297,0.021819582215348757,-0.17604762543799313,0.37582041226016727,-0.20845643345001716,-0.10429533063700076,0.20125885592371218,0.2694484882870111,0.2575735827671652,-0.4074717474589111]}]]