[[{},{},{},{},{},{},{},{},{},{},{},{}],[{"weights":[0.04928339448302146,-0.2258908697926188,0.006607130766004752,-0.05342433131664596,0.24400257049062288,0.02210326088633409,0.039185568714122126,-0.23564632932767224,-0.2593146125153753,-0.11262151275724455,0.1566899593850412,-0.02514899071409644],"bias":-0.16968843862509875},{"weights":[0.25297480593520166,0.3578717067411552,-0.0011996699565664341,-0.01779072868057755,0.013698949504032339,0.25345584004492716,0.06933976971190856,-0.20348423952886852,0.026047093186809256,0.14397195540353971,0.08414108599945601,-0.26263716455286723],"bias":0.33901586629357194},{"weights":[0.02365485291109232,0.2983567142199111,-0.01974102836848104,0.007808614131813163,0.06453974622925968,0.1413045089712626,-0.0019221665456849093,-0.0020004704375082977,0.12776388229125682,-0.09516694497149784,0.04234327708937335,-0.028619615183857215],"bias":0.4415531646927424},{"weights":[0.0367273961146323,-0.019109924045247605,-0.001669257117813853,-0.030580834767856016,-0.2329605956193531,0.17653459743272587,0.1401491098094356,-0.1906582427438106,0.3231701795371642,-0.3399686126155013,-0.2371810965047104,-0.049445400578639345],"bias":-0.7028181866930276}],[{"weights":[-0.15499336734659913,0.1488655489146411,-0.45053849885036534,0.0068832199643407855],"bias":-0.8355961801718028},{"weights":[-0.08445136744622554,-0.0427432302591033,-0.0576994131894521,0.16630381902221336],"bias":-0.6344679853843616},{"weights":[0.12648151902246452,-0.06542489122226167,-0.13903497099516676,0.044244986202900724],"bias":-0.340142446332554},{"weights":[0.023678556291393274,-0.038252226878651346,0.14267741935780132,-0.23335857143777566],"bias":-0.11239718447644986},{"weights":[-0.03519680819106165,0.34465797760710093,0.021741195102949473,-0.10600986334318918],"bias":0.15359839029423566},{"weights":[0.28198860850449714,0.16732146077549723,0.3057811434136148,0.03318458257498671],"bias":2.103418987508227}]]