[[{},{},{},{},{},{},{},{},{},{},{},{}],[{"bias":-1.4933906655789175,"weights":[1.8172138204848538,0.9344954772848657,-1.0741173299944462,-0.6843067325673327,-0.07906961540159518,0.27838575264445153,-1.6697381364583497,-0.8088312622927165,0.3361225831419613,-0.4355389942107512,-0.5455223136448104,0.6366437040085344]},{"bias":1.2660906239875311,"weights":[-0.08421716915558797,-0.23962279595971747,0.9796732092079611,0.3505979582503418,0.5207080298963944,-1.44521728973245,-0.6108009978399342,0.3006263987338402,1.1979311952459029,1.290630177281489,1.001561136185177,1.5888367693471646]},{"bias":2.3815476896704486,"weights":[0.926023253881865,-1.1405151464725245,-0.6789736237460253,-1.8022844167303407,-0.4134364180030713,1.431387207973637,0.15156121866118033,-0.29059678874020467,1.3246235512449591,1.144681903897294,-0.5614951770175203,-0.393646383601105]},{"bias":-1.2611081282886878,"weights":[-0.038335548621619586,1.3397596255929232,-0.4501647503877254,-1.4323708812961142,0.4014792751878419,-0.06560590526815091,-0.1850333459104163,0.6706200543775247,-1.4641304902799643,0.5680965567004589,-0.4712542367357784,0.2347136697240073]},{"bias":-1.6257745152072387,"weights":[1.3332660151189928,1.6333383475134682,-0.7055459288464249,1.585978977104177,-0.735522339123632,0.9451504684324312,-0.10679759513224016,0.2555331799616718,0.017473197833838605,-0.07906871694427325,-1.3951741075625557,1.1708526546380909]},{"bias":0.3146929823068022,"weights":[-0.8944166807305649,1.800611777003223,0.7074741172582025,-1.4220451264885454,-0.6032899320667751,-0.14544639261371867,1.0024087036528593,0.8098628912560353,1.0141653308419516,0.8897084447755585,0.3121425255037916,-0.4363760009987503]},{"bias":1.967496903080179,"weights":[-1.099288068569046,-0.728242417292387,0.6928265296532403,-0.029266018296617125,0.846003000874923,0.8512795943315803,0.5145407818576804,0.8972636252257109,0.11646560241883352,1.6305029257388874,-0.6983470559452367,-0.4001621810928078]},{"bias":-0.19754263752203793,"weights":[0.4151410337099747,-0.5340878066673715,-1.09718707476021,-1.6071989295738776,-1.3639119445792904,0.0029915693058393533,-0.3958524743733752,-0.41083717481113524,0.9425366408908575,-0.12281507788063106,-1.2579311107869704,-0.5386351991354522]},{"bias":2.035359395444741,"weights":[-1.1666057619060082,-0.6110347397991007,0.8942230124054262,-0.20020168306037073,-1.0827404620648446,-0.512443095523911,0.23387649287615825,-0.5453691932896251,0.33723916197097936,-1.5675093953423775,-1.5909653763844451,0.5121297448511679]},{"bias":1.1537824547815236,"weights":[-0.07273650622677386,0.9657977399189887,-0.7048684482938606,1.2572878429875844,-1.1996885520663205,-0.5021534890884876,-1.0601621604100786,0.7838451246308639,0.3419178875629734,0.22504239990644231,0.6281687922652543,0.5340265342128026]}],[{"bias":0.3214480379718232,"weights":[0.7653668835383997,0.5363448989936213,1.2393626229698147,-0.06314720339353044,0.735391096413404,0.434946220181315,-1.1030552076255222,0.18199549875427268,0.24520787675966482,-0.5229062214976568]},{"bias":-0.8236928543292328,"weights":[0.6969349040080008,0.25743786478715236,-0.08837049720659956,-0.36754310387290756,-1.1088342969767588,0.741374889956653,-1.765597134989533,-1.0395646565440595,0.30873357795774076,-1.6108692437551433]},{"bias":-0.11400690364447796,"weights":[-1.3414602143397283,0.3181338174507824,-0.6593329017295957,1.3495445404168471,-1.3801809841035388,1.9097760910536465,-1.8402080728940626,-0.7185919103740003,-1.259333181289692,1.0695977375467383]},{"bias":1.0149187706300233,"weights":[-1.1774864144859103,-0.5930988853026908,-1.0938704967922086,-0.2859397107626754,-0.367628177015913,0.2529883144391658,-0.9029357606983642,-1.208967865708975,-1.5050734393405722,0.5840598389015784]},{"bias":-1.4997792413453845,"weights":[-0.35275321362282264,-0.2022783885116125,-1.426929051242388,-0.43249701752200403,0.5374937979964443,-0.7716121298994018,-1.0824491367316094,1.2350174989807965,0.03130054985118852,0.8972227377343618]},{"bias":0.47355837100475306,"weights":[-0.141327508018362,1.034474187674378,0.8977209370240891,-1.6214164099380879,-0.4153085683062404,0.025418479009587713,1.0968767078215282,1.0683641161313808,-0.5260053842145671,1.098073821616135]}]]