[[{},{},{},{},{},{},{},{},{},{},{},{}],[{"bias":-2.0157069874818654,"weights":[-0.32532432038571685,1.144293581787435,0.5418893256145129,1.0610007988440573,-0.6612556184783456,0.7798005177222531,-1.0718150160850752,-0.6628997737917603,0.09521743022993401,-1.023929386377731,-0.732365099360861,0.6684185336666459]},{"bias":-1.0354151478475067,"weights":[0.5809464694647284,-1.2981252460178925,-0.6251651775730624,1.5107116491151098,-0.12512609336980351,0.497173497160509,-0.12475293256018022,-1.484847263301173,0.7182751461462837,1.0198358122250415,0.8629913533285944,-0.1344111382120452]},{"bias":2.517501451688759,"weights":[-0.5842211345732327,-1.6298162586291378,-1.2042944922858625,1.7709158689571525,0.40992317241215914,-0.5963151435065364,-0.32640080640917,0.9843080749409017,0.5846787950192335,0.31700247338134835,0.395388434935503,-0.35853226742519384]},{"bias":1.2164383504329808,"weights":[-1.0848624759546126,0.03396288117238566,-0.08187426614429821,0.9799592180628198,-1.0334982286933974,-0.5825428449715118,-0.29894696202095433,-0.8399371013752461,0.6225186159796923,-0.37036667349613484,1.4026604902679054,-1.0433306903654653]},{"bias":0.8110700778396515,"weights":[-0.7885992723715397,-0.5013255116362128,-0.29631380788229955,-0.22001891297150877,1.4552781521651763,-0.8979509013390253,-1.399622769459848,-1.4963940295912213,-0.33352765635799486,-0.7475879157008745,0.33541733424479947,0.3644065076977908]},{"bias":2.1839910577270096,"weights":[0.9421355708089711,-1.3637782722963987,-0.5804563918256929,-0.668255033456199,-0.023173308114226132,-1.6382702002399325,-0.8111125569297067,0.9013586608115463,1.6245271709036846,1.6297804007291488,0.6098094632301617,-0.22994788217999007]}]]