[[{},{},{},{},{},{},{},{},{},{},{},{}],[{"bias":0.09089711879886977,"weights":[-0.24813952979270015,-0.04973123345785753,-0.22394877752051429,0.12422966565756147,0.2211328169314899,0.1957125940708436,-0.10807299543853832,0.11927042390057153,0.06687402684909013,0.04789160333461056,-0.21853656528627124,0.0905607275872077]},{"bias":-0.1339832533222184,"weights":[0.19460730405660648,0.08513812359048095,-0.17397271120890925,-0.3830944161707804,0.14425583491771948,0.47310981634375715,-0.07057463001405495,0.14503987803396212,-0.21651149292095145,0.4321808400143974,0.06713297577479027,0.11126879148976442]},{"bias":0.09027210189368241,"weights":[-0.05326128787582244,0.3523619016802645,-0.12154346695587283,-0.12337386882587029,-0.3045000508692664,-0.11015264324713286,0.1244168519849605,-0.15856175840914233,0.19907577672337062,-0.011720772011079905,-0.0523393231478191,-0.18953474828354808]},{"bias":-0.030188194976265556,"weights":[-0.21303113983097938,-0.20353522843825175,-0.27397725871303846,0.1546043732011944,-0.028662087266870674,0.09950787324085467,0.1155962490961814,-0.13748500847536854,-0.28347549046711673,-0.07670069863646142,0.2617306942005313,-0.20188594824523515]},{"bias":0.12674149034005533,"weights":[-0.09256833819273609,0.04709666754119837,-0.2739729377284458,-0.23172881959080496,-0.4096598664430767,0.09683513243166816,-0.06903272694299468,0.3004775583536423,0.07314923108385604,0.3825523131525559,-0.16714167156801135,0.17482245377074732]},{"bias":-0.7031198301612356,"weights":[0.23720671896174317,-0.31691569382216833,0.041721963405707725,0.03715332823381344,0.060947119486681925,0.19154752628006322,0.27591131339183145,0.013222848850635047,-0.14976351413664196,-0.02272729740199988,-0.0430213829206809,0.3512610879018099]},{"bias":0.20979492101671704,"weights":[-0.0525477359153414,0.06970339065683764,0.32436391079950533,-0.21456544148447398,0.014319285687246244,0.37480265983287314,-0.018393691412172203,-0.38827935065734986,0.182107241221832,-0.30491638451196956,-0.06119609831406929,-0.1113085570038307]},{"bias":0.2105127086591254,"weights":[-0.1874604702140468,0.062288164471159105,0.10550670692215951,0.24940834126225683,-0.2596040289557328,0.3810989181282715,-0.03825427023046184,-0.011682718999831285,0.3466810669981806,-0.009450762066303506,0.21740825764961919,0.1509111310504146]},{"bias":0.2700616859970194,"weights":[-0.18105458788190792,0.018335762502237382,0.09513710636081849,0.11254271124944462,-0.1897955912015346,-0.15025788969197096,0.05083410842394588,-0.021006707878133905,0.08146092980355586,-0.011867058203269956,0.026565394003501025,-0.2054127574674634]},{"bias":-0.19767118832182806,"weights":[0.07864899401745704,-0.09693082476306317,-0.07098779968364904,-0.023749811886304317,0.16628353020389175,0.04579737408836229,-0.08852821127138724,0.1696497108406336,-0.15039792492174747,-0.1811674448688774,0.02747171125063408,0.05114204553008173]}],[{"bias":-0.6655627218861767,"weights":[-0.6119254367732069,0.046318446945355904,-0.3262050373623082,-0.2827777406232634,-0.04441983999385941,0.22338149441904734,-0.05920370382186604,-0.2531610630799403,-0.34267444338289044,-0.061710320982848135]},{"bias":-0.702117583759763,"weights":[-0.21989170140101363,-0.252171873322942,0.1351296824932119,0.16967404999611593,0.013811367030807181,-0.4017114928190084,0.24311677027389553,0.01837483930639653,-0.146047223929494,-0.1603359725879419]},{"bias":-0.6454384545543965,"weights":[-0.41312127204565224,-0.10277533031767554,-0.05919552745569241,-0.10914746543336715,-0.3127603933950873,-0.08126887415508718,0.12360964207803149,-0.2802413291524736,-0.4228468454575226,-0.1629490679062622]},{"bias":-0.10288286913652928,"weights":[-0.20372928340296248,-0.47323092926782806,-0.43777102291159276,0.06019873757339617,-0.4168724962493484,-0.13567369035166596,-0.4375927586408205,-0.2703615200490569,-0.03737172483797649,0.05780221679600761]},{"bias":-0.10642020204706987,"weights":[-0.2303121058586629,-0.017245585155902396,-0.12799827991102736,-0.04064384047228166,-0.012469163739140355,0.3871298660300406,-0.042725620856699786,0.23138377784328168,0.32413869843025844,0.00045700891335695437]},{"bias":0.8892729362559931,"weights":[0.28266325804944903,0.39757465979413564,0.2093111985170672,0.28903254641512005,0.11636427691042357,-0.05903810156616908,0.4275724850823961,0.5480737170359804,0.6970804390909902,0.22320925420549936]}]]