[[{},{},{},{},{},{},{},{},{},{},{},{}],[{"bias":0.07082067926895164,"weights":[-0.058312823888246434,-2.878423404223698,0.16769998992587087,0.35150576057564464,-0.8625174373556739,1.2326209094119092,0.7999437825378957,0.9517232761151249,-0.02990028948768586,1.1264261417876469,0.3338926591578053,2.3204233419922904]},{"bias":4.325450730497311,"weights":[-2.530354600216815,-1.8601869186534044,1.4932090530761029,-1.0395296620080918,2.018345916306335,-0.8056320408023856,1.4317353124524193,-1.4936258402806186,1.7818792578265317,0.9208985416630604,-0.4494184379474726,-1.1712779502702269]},{"bias":3.0508496382652854,"weights":[-1.637682589828894,1.2985682045414695,-0.107767291925009,2.9140968373516642,-2.053136358056958,-0.1770317293474526,1.7427172859445577,0.8763281215977843,0.17465469063926875,2.7532439193067404,0.5626952126941083,2.0582317712773497]},{"bias":3.9410327554649918,"weights":[0.699236111193767,-0.12493923836231025,-2.927281055161251,1.2345285938725095,2.0758887119814116,1.9566109594090344,-0.38799009930090556,1.3150452636902958,1.4769058611553838,-1.123187487547207,0.6069670174438677,-1.8406693066665583]}],[{"bias":-2.8697867242215027,"weights":[2.4047937552760583,0.46257346251454123,-0.016409254345127078,-2.761313689325048]},{"bias":1.7762182004212708,"weights":[0.15458575981797917,-2.813881561466861,2.5579332406125657,-0.46158463364999847]},{"bias":-0.078627573023895,"weights":[-1.519539657501657,-2.468970780594841,-0.059319445653958525,1.6052444330178837]},{"bias":-1.5795828885999672,"weights":[-0.951558072422805,2.661552865890208,-0.8154716911803961,-1.1923720367348105]},{"bias":-4.042593975478236,"weights":[0.683854790393446,2.92666638533717,-2.1796138420978624,2.4430892225816425]},{"bias":2.016784851592204,"weights":[-0.7132175459969678,2.825038136561928,1.2631804574613348,0.19584926697955174]}]]